unsigned char mlp_tf_tflite[] = {
  0x1c, 0x00, 0x00, 0x00, 0x54, 0x46, 0x4c, 0x33, 0x14, 0x00, 0x20, 0x00,
  0x1c, 0x00, 0x18, 0x00, 0x14, 0x00, 0x10, 0x00, 0x0c, 0x00, 0x00, 0x00,
  0x08, 0x00, 0x04, 0x00, 0x14, 0x00, 0x00, 0x00, 0x1c, 0x00, 0x00, 0x00,
  0x8c, 0x00, 0x00, 0x00, 0xe4, 0x00, 0x00, 0x00, 0x18, 0x13, 0x00, 0x00,
  0x28, 0x13, 0x00, 0x00, 0x64, 0x17, 0x00, 0x00, 0x03, 0x00, 0x00, 0x00,
  0x01, 0x00, 0x00, 0x00, 0x04, 0x00, 0x00, 0x00, 0x9e, 0xec, 0xff, 0xff,
  0x0c, 0x00, 0x00, 0x00, 0x1c, 0x00, 0x00, 0x00, 0x3c, 0x00, 0x00, 0x00,
  0x0f, 0x00, 0x00, 0x00, 0x73, 0x65, 0x72, 0x76, 0x69, 0x6e, 0x67, 0x5f,
  0x64, 0x65, 0x66, 0x61, 0x75, 0x6c, 0x74, 0x00, 0x01, 0x00, 0x00, 0x00,
  0x04, 0x00, 0x00, 0x00, 0x90, 0xff, 0xff, 0xff, 0x07, 0x00, 0x00, 0x00,
  0x04, 0x00, 0x00, 0x00, 0x08, 0x00, 0x00, 0x00, 0x6f, 0x75, 0x74, 0x70,
  0x75, 0x74, 0x5f, 0x30, 0x00, 0x00, 0x00, 0x00, 0x01, 0x00, 0x00, 0x00,
  0x04, 0x00, 0x00, 0x00, 0xfa, 0xee, 0xff, 0xff, 0x04, 0x00, 0x00, 0x00,
  0x0d, 0x00, 0x00, 0x00, 0x69, 0x6e, 0x70, 0x75, 0x74, 0x5f, 0x6c, 0x61,
  0x79, 0x65, 0x72, 0x5f, 0x31, 0x00, 0x00, 0x00, 0x02, 0x00, 0x00, 0x00,
  0x34, 0x00, 0x00, 0x00, 0x04, 0x00, 0x00, 0x00, 0xdc, 0xff, 0xff, 0xff,
  0x0a, 0x00, 0x00, 0x00, 0x04, 0x00, 0x00, 0x00, 0x13, 0x00, 0x00, 0x00,
  0x43, 0x4f, 0x4e, 0x56, 0x45, 0x52, 0x53, 0x49, 0x4f, 0x4e, 0x5f, 0x4d,
  0x45, 0x54, 0x41, 0x44, 0x41, 0x54, 0x41, 0x00, 0x08, 0x00, 0x0c, 0x00,
  0x08, 0x00, 0x04, 0x00, 0x08, 0x00, 0x00, 0x00, 0x09, 0x00, 0x00, 0x00,
  0x04, 0x00, 0x00, 0x00, 0x13, 0x00, 0x00, 0x00, 0x6d, 0x69, 0x6e, 0x5f,
  0x72, 0x75, 0x6e, 0x74, 0x69, 0x6d, 0x65, 0x5f, 0x76, 0x65, 0x72, 0x73,
  0x69, 0x6f, 0x6e, 0x00, 0x0b, 0x00, 0x00, 0x00, 0x30, 0x12, 0x00, 0x00,
  0x28, 0x12, 0x00, 0x00, 0x88, 0x10, 0x00, 0x00, 0x6c, 0x10, 0x00, 0x00,
  0xcc, 0x0e, 0x00, 0x00, 0xac, 0x00, 0x00, 0x00, 0xa4, 0x00, 0x00, 0x00,
  0x9c, 0x00, 0x00, 0x00, 0x94, 0x00, 0x00, 0x00, 0x74, 0x00, 0x00, 0x00,
  0x04, 0x00, 0x00, 0x00, 0xa2, 0xef, 0xff, 0xff, 0x04, 0x00, 0x00, 0x00,
  0x60, 0x00, 0x00, 0x00, 0x0c, 0x00, 0x00, 0x00, 0x08, 0x00, 0x0e, 0x00,
  0x08, 0x00, 0x04, 0x00, 0x08, 0x00, 0x00, 0x00, 0x10, 0x00, 0x00, 0x00,
  0x28, 0x00, 0x00, 0x00, 0x00, 0x00, 0x06, 0x00, 0x08, 0x00, 0x04, 0x00,
  0x06, 0x00, 0x00, 0x00, 0x04, 0x00, 0x00, 0x00, 0x01, 0x00, 0x00, 0x00,
  0xea, 0x03, 0x00, 0x00, 0x0c, 0x00, 0x18, 0x00, 0x14, 0x00, 0x10, 0x00,
  0x0c, 0x00, 0x04, 0x00, 0x0c, 0x00, 0x00, 0x00, 0xce, 0x32, 0xc4, 0xe1,
  0xa5, 0x76, 0x0e, 0x4a, 0x02, 0x00, 0x00, 0x00, 0x02, 0x00, 0x00, 0x00,
  0x04, 0x00, 0x00, 0x00, 0x06, 0x00, 0x00, 0x00, 0x32, 0x2e, 0x31, 0x38,
  0x2e, 0x30, 0x00, 0x00, 0x0e, 0xf0, 0xff, 0xff, 0x04, 0x00, 0x00, 0x00,
  0x10, 0x00, 0x00, 0x00, 0x31, 0x2e, 0x31, 0x34, 0x2e, 0x30, 0x00, 0x00,
  0x00, 0x00, 0x00, 0x00, 0x00, 0x00, 0x00, 0x00, 0x64, 0xea, 0xff, 0xff,
  0x68, 0xea, 0xff, 0xff, 0x6c, 0xea, 0xff, 0xff, 0x36, 0xf0, 0xff, 0xff,
  0x04, 0x00, 0x00, 0x00, 0x10, 0x0e, 0x00, 0x00, 0xa3, 0x25, 0x29, 0x3d,
  0x79, 0x6d, 0x39, 0xbd, 0x3e, 0xf8, 0x09, 0x3e, 0x87, 0xf4, 0xcf, 0x3e,
  0x75, 0x0d, 0xd6, 0xbd, 0x54, 0xc4, 0x91, 0xbe, 0xbc, 0x3b, 0xad, 0x3e,
  0xb5, 0xaa, 0x7d, 0xbe, 0x96, 0xa3, 0xb1, 0x3e, 0x25, 0x3e, 0xd4, 0xbc,
  0xdd, 0x45, 0x8b, 0x3e, 0x9c, 0x71, 0x63, 0x3d, 0xa4, 0xd3, 0x09, 0x3e,
  0x32, 0xd1, 0x7a, 0xbd, 0x08, 0xf3, 0xbc, 0xbe, 0x6b, 0x4d, 0x0b, 0x3f,
  0xbd, 0x57, 0x5c, 0x3e, 0x35, 0x43, 0x0f, 0xbe, 0xf8, 0x46, 0x98, 0x3e,
  0x58, 0x9a, 0x7c, 0xbe, 0xa2, 0x81, 0x6a, 0xbd, 0xf4, 0x86, 0xc3, 0xbe,
  0xa3, 0xb3, 0xf8, 0xbe, 0x6b, 0x83, 0xcf, 0xbe, 0xfe, 0xc9, 0x78, 0x3d,
  0x16, 0x83, 0x02, 0x3e, 0x91, 0x8c, 0x7d, 0xbd, 0x18, 0x05, 0x76, 0xbd,
  0x8f, 0x26, 0xb8, 0xbd, 0x53, 0xb0, 0xae, 0xbd, 0x61, 0xf6, 0x98, 0xbe,
  0x08, 0x4f, 0x33, 0xbe, 0xb2, 0xd8, 0xee, 0x3d, 0xcd, 0x97, 0x42, 0x3c,
  0x5b, 0x09, 0xd0, 0x3d, 0xae, 0x11, 0x96, 0x3e, 0xd9, 0x8b, 0xc1, 0x3d,
  0x31, 0x12, 0x8b, 0x3e, 0x94, 0xc0, 0xba, 0x3e, 0xd7, 0x89, 0x9b, 0xbe,
  0xc8, 0x4b, 0x6c, 0xbe, 0x8a, 0x2e, 0x48, 0x3e, 0xaf, 0x5e, 0xd6, 0xbe,
  0x4c, 0x63, 0x87, 0x3d, 0x2c, 0x72, 0xf8, 0x3e, 0x08, 0x19, 0x36, 0x3e,
  0x79, 0x1f, 0x44, 0xbe, 0x28, 0x16, 0xd9, 0x3d, 0xf0, 0x07, 0x1c, 0x3e,
  0x93, 0x81, 0x0c, 0xbf, 0xf5, 0x81, 0x40, 0xbf, 0xd6, 0xec, 0x34, 0xbe,
  0x77, 0xdf, 0x9b, 0x3e, 0x86, 0xfb, 0xae, 0x3e, 0x27, 0x81, 0xcc, 0x3e,
  0x63, 0x9e, 0x50, 0xbe, 0x23, 0xda, 0x84, 0xbd, 0xae, 0x66, 0x02, 0xbe,
  0x46, 0xdf, 0x6b, 0xbe, 0xf8, 0xde, 0x0b, 0x3e, 0x18, 0x32, 0xe0, 0xbd,
  0x0f, 0x4f, 0x80, 0x3d, 0x74, 0x37, 0xe8, 0xbd, 0x75, 0x13, 0x1c, 0x3d,
  0x45, 0x02, 0xaa, 0xbe, 0x6f, 0xf6, 0x0d, 0x3d, 0xd5, 0xdd, 0x7c, 0x3d,
  0xa8, 0x4b, 0x09, 0xbe, 0xaa, 0x0c, 0xb5, 0x3e, 0x95, 0x53, 0x20, 0xbe,
  0x6a, 0x3b, 0x4f, 0x3e, 0xd9, 0x43, 0xa5, 0x3d, 0x7a, 0x0c, 0x68, 0xbd,
  0x67, 0x2e, 0xbd, 0x3e, 0x33, 0xc8, 0xd0, 0xbd, 0x56, 0x9c, 0x9b, 0x3e,
  0xde, 0x31, 0xf7, 0x3d, 0x65, 0xa7, 0xda, 0xbe, 0x8a, 0x79, 0x58, 0xbc,
  0xab, 0xb8, 0x09, 0x3d, 0xdd, 0x55, 0x90, 0x3e, 0xf2, 0xd9, 0x53, 0x3e,
  0x03, 0x13, 0x8f, 0x3e, 0xce, 0xef, 0xe8, 0xbe, 0xe6, 0xe9, 0x25, 0x3e,
  0x65, 0xb6, 0x07, 0xbb, 0x9b, 0x16, 0x9b, 0x3e, 0x55, 0xe5, 0xeb, 0xbd,
  0xb6, 0x78, 0xb7, 0x3d, 0x69, 0xfe, 0x01, 0x3d, 0xa6, 0x11, 0x96, 0x3d,
  0x41, 0x55, 0xc6, 0xbc, 0x3e, 0xd9, 0xc6, 0xbc, 0x67, 0xa1, 0x92, 0x3e,
  0xd5, 0x67, 0x04, 0xbe, 0x20, 0xee, 0xf2, 0x3d, 0xb1, 0x24, 0xd9, 0xbd,
  0xf2, 0x50, 0xbf, 0xbd, 0xae, 0x51, 0x54, 0x3c, 0xbd, 0x3c, 0xc4, 0x3c,
  0x16, 0x49, 0x04, 0x3f, 0x6e, 0xe9, 0x26, 0x3d, 0x66, 0xc4, 0x78, 0x3e,
  0x91, 0x37, 0xb0, 0x3e, 0x5a, 0xff, 0xa5, 0xbe, 0x79, 0x81, 0x17, 0x3f,
  0xe3, 0x87, 0x12, 0x3e, 0x95, 0xab, 0x4f, 0x3d, 0x70, 0x08, 0xb5, 0x3d,
  0x81, 0x87, 0x18, 0xbd, 0x5c, 0x7e, 0x0b, 0x3e, 0x66, 0x12, 0x93, 0x3d,
  0x32, 0xdd, 0x20, 0x3f, 0x8f, 0xfe, 0x70, 0xbd, 0x27, 0x77, 0x0d, 0xbd,
  0x69, 0x32, 0x4d, 0x3e, 0x97, 0x70, 0x6c, 0x3e, 0x0f, 0xcf, 0xda, 0x3d,
  0x5c, 0xe3, 0xd6, 0xbe, 0xb8, 0x0d, 0x8a, 0x3e, 0x24, 0x36, 0x2e, 0xbe,
  0xd3, 0x2f, 0x35, 0xbe, 0x47, 0x45, 0x9a, 0x3e, 0xdc, 0x93, 0xb4, 0x3d,
  0x4f, 0x80, 0x41, 0x3e, 0x5d, 0x10, 0xef, 0xbd, 0x41, 0xf9, 0x0f, 0x3e,
  0xcd, 0x44, 0x25, 0xbe, 0x95, 0x37, 0x7d, 0xbe, 0x46, 0xdc, 0x3e, 0xbe,
  0xa5, 0x03, 0x6c, 0x3d, 0x8a, 0xbe, 0x5c, 0x3d, 0x23, 0x4a, 0xf5, 0xbd,
  0xf4, 0x4c, 0x9e, 0x3e, 0x52, 0x5e, 0x04, 0xbe, 0x41, 0x8d, 0x09, 0xbd,
  0x34, 0x7e, 0xbf, 0x3d, 0x21, 0x3f, 0xca, 0x3b, 0x80, 0xec, 0xb5, 0x3d,
  0x0f, 0x06, 0xaa, 0x3e, 0xf5, 0xa4, 0x82, 0x3e, 0xec, 0x6b, 0x2d, 0xbe,
  0xfe, 0xb3, 0x5a, 0x3e, 0xf3, 0x0c, 0x42, 0x3e, 0xe8, 0x83, 0x4d, 0x3d,
  0x1c, 0xe0, 0x65, 0xbf, 0x63, 0xdc, 0x49, 0xbe, 0xf2, 0x8c, 0x42, 0x3e,
  0xfe, 0xb7, 0x18, 0xbf, 0x97, 0x61, 0x2e, 0xbf, 0xf0, 0xc0, 0x27, 0xbe,
  0xc7, 0x5b, 0xd6, 0x3d, 0xa8, 0x50, 0x75, 0x3d, 0xda, 0x38, 0x88, 0x3d,
  0xf3, 0x0f, 0xc2, 0xbe, 0x51, 0xad, 0x46, 0x3e, 0x65, 0x43, 0x17, 0x3c,
  0x38, 0xb1, 0x15, 0x3f, 0x51, 0x20, 0x18, 0xbe, 0xce, 0x2b, 0x74, 0x3d,
  0x95, 0xa3, 0xd4, 0x3d, 0x69, 0x1c, 0x60, 0x3d, 0x78, 0x11, 0xac, 0x3d,
  0x44, 0xe2, 0xa5, 0x3e, 0x8f, 0x84, 0xb0, 0x3e, 0x45, 0x90, 0x8d, 0xbe,
  0xa9, 0x71, 0x56, 0xbe, 0xac, 0xe3, 0x66, 0x3d, 0x1d, 0xb9, 0x4e, 0x3e,
  0xa6, 0xd9, 0x6e, 0x3e, 0x57, 0x2c, 0x6e, 0x3e, 0xca, 0x00, 0x83, 0xbd,
  0xbd, 0x98, 0xf8, 0x3d, 0x48, 0x54, 0x4b, 0xbd, 0x57, 0xb9, 0xba, 0x3d,
  0x65, 0x04, 0x39, 0xbd, 0x49, 0x29, 0x22, 0xbd, 0x65, 0xba, 0x0b, 0xbc,
  0x4e, 0x52, 0x52, 0x3e, 0x9e, 0xd0, 0x3a, 0x3e, 0xe2, 0x19, 0xb9, 0x3d,
  0xec, 0xf9, 0xcd, 0xbe, 0x7a, 0x7b, 0xba, 0x3d, 0x0a, 0x92, 0xfd, 0xbd,
  0xd2, 0xcd, 0x2e, 0xbd, 0xfa, 0x3c, 0x0b, 0x3e, 0x82, 0x90, 0xb3, 0x3d,
  0x1d, 0xcd, 0x57, 0x3e, 0xfc, 0xa6, 0xd3, 0x3d, 0xf6, 0x8b, 0xd2, 0x3d,
  0x68, 0x73, 0xdd, 0x3e, 0xa6, 0x6d, 0xa0, 0x3e, 0x30, 0xe4, 0xd7, 0x3d,
  0x0d, 0xe6, 0xb8, 0x3d, 0x49, 0x2b, 0x8b, 0x3e, 0x28, 0x5e, 0x9f, 0x3d,
  0xc0, 0x7a, 0xe2, 0x3d, 0x6d, 0x84, 0x5e, 0x3e, 0x0a, 0xa7, 0x8d, 0xbd,
  0x67, 0xc6, 0x69, 0x3e, 0x38, 0x37, 0xa8, 0x3b, 0x1b, 0x74, 0xaa, 0x3e,
  0x4d, 0x0c, 0x64, 0x3e, 0x6f, 0xe9, 0xa8, 0xbe, 0xc7, 0xd6, 0xd5, 0x3e,
  0x07, 0x2a, 0x5d, 0x3e, 0x22, 0xf8, 0x49, 0xbd, 0xf4, 0xab, 0x9d, 0x3c,
  0xbe, 0x2f, 0x08, 0xbe, 0x25, 0xb0, 0xc5, 0x3e, 0x91, 0xe2, 0x21, 0xbe,
  0xc2, 0x04, 0x7a, 0xbe, 0x70, 0xd1, 0x36, 0x3e, 0x3d, 0x4c, 0x20, 0x3d,
  0x4b, 0xea, 0x60, 0x3e, 0x42, 0x92, 0xb8, 0x3d, 0xa0, 0x4d, 0x06, 0xbf,
  0xff, 0xfd, 0x70, 0xbd, 0x7f, 0x4f, 0x4b, 0xbe, 0xd5, 0xa9, 0xe6, 0xbd,
  0x27, 0xf1, 0x25, 0xbd, 0xad, 0xbe, 0xde, 0xbc, 0xfe, 0x67, 0x5d, 0x3e,
  0x54, 0x54, 0x47, 0x3d, 0x10, 0xa6, 0xa1, 0xbd, 0xd2, 0x59, 0x39, 0xbb,
  0x89, 0x96, 0xf8, 0x3e, 0x9b, 0xd6, 0xcc, 0xbe, 0x48, 0xf3, 0xd7, 0x3d,
  0x77, 0x65, 0xd9, 0xbe, 0xac, 0x57, 0x96, 0x3e, 0xd0, 0x1e, 0x06, 0xbe,
  0x71, 0x07, 0x69, 0xbe, 0xbf, 0xce, 0x54, 0xbe, 0x49, 0xdb, 0xb2, 0xbd,
  0x3b, 0xbb, 0x8b, 0x3e, 0xd6, 0x0f, 0x97, 0x3d, 0xf7, 0x1e, 0x8c, 0xbd,
  0x3c, 0xca, 0x57, 0x3f, 0x13, 0x1d, 0x32, 0x3f, 0xa7, 0xda, 0x4a, 0x3e,
  0x33, 0xb3, 0x74, 0x3d, 0x9a, 0x6a, 0x6b, 0x3d, 0x3e, 0x71, 0x6d, 0xbe,
  0x3d, 0x55, 0x92, 0x3e, 0x41, 0x14, 0x30, 0xbe, 0x39, 0xb2, 0xe1, 0x3d,
  0xdd, 0x3d, 0x18, 0xbe, 0xf4, 0xbc, 0xad, 0x3d, 0xa9, 0xe8, 0xdb, 0xbc,
  0xdf, 0x03, 0x58, 0xbd, 0x03, 0x61, 0x3f, 0xbe, 0x27, 0xce, 0xb4, 0xbe,
  0x8b, 0x56, 0xc7, 0xbc, 0x02, 0x0c, 0xfe, 0x3c, 0x21, 0xc8, 0x62, 0xbd,
  0x48, 0x75, 0x72, 0x3e, 0xa6, 0x14, 0x4c, 0x3d, 0x88, 0xf2, 0x19, 0xbe,
  0xf4, 0x84, 0x8b, 0x3e, 0xf0, 0xdc, 0xe3, 0x3e, 0x96, 0x5e, 0xa8, 0x3d,
  0x2e, 0x95, 0x8b, 0x3e, 0xaa, 0x28, 0x84, 0xbe, 0x80, 0x59, 0x60, 0xbc,
  0x86, 0x66, 0x45, 0xbe, 0x7c, 0xf0, 0x70, 0x3d, 0x91, 0x80, 0x0b, 0xbf,
  0x20, 0x34, 0x80, 0xbe, 0x04, 0x23, 0x50, 0x3e, 0xb7, 0x0a, 0x33, 0xbc,
  0x2f, 0xf4, 0xd9, 0xbe, 0xba, 0x9c, 0x05, 0x3e, 0x3b, 0x50, 0x15, 0xbe,
  0x3e, 0x4a, 0x74, 0xbe, 0x6e, 0xd7, 0x9c, 0x3e, 0x31, 0x99, 0x5e, 0x3d,
  0x10, 0x43, 0x09, 0x3e, 0x32, 0xd9, 0x8a, 0x3b, 0x11, 0x85, 0x08, 0x3d,
  0xc3, 0xec, 0x4c, 0x3e, 0x5c, 0xd3, 0xff, 0xbd, 0x99, 0x30, 0x38, 0xbe,
  0xd5, 0x07, 0x28, 0x3d, 0x55, 0xfa, 0x16, 0xbe, 0xe8, 0x35, 0xe5, 0x3d,
  0x84, 0x44, 0xb0, 0xbe, 0x97, 0xc9, 0xaf, 0x3e, 0x57, 0x18, 0xfc, 0xbd,
  0x6e, 0x03, 0xa8, 0x3e, 0x04, 0x5d, 0x5d, 0xbe, 0x07, 0x2a, 0x5e, 0x3e,
  0xae, 0x97, 0xf7, 0xbb, 0x24, 0x43, 0xb1, 0xbe, 0x2b, 0x92, 0xf5, 0x3c,
  0xa9, 0xe0, 0x2f, 0xbd, 0xed, 0x70, 0xc4, 0x3d, 0x15, 0xd8, 0x8a, 0xbd,
  0xca, 0xda, 0x13, 0x3f, 0x23, 0x04, 0xad, 0x3e, 0xe0, 0x8d, 0xc3, 0xbe,
  0xc7, 0x41, 0x3f, 0x3e, 0x63, 0x26, 0x64, 0x3e, 0x11, 0x14, 0xa2, 0x3e,
  0x0a, 0x8b, 0x4f, 0x3e, 0xe1, 0x7d, 0x3a, 0x3d, 0xf2, 0x4c, 0x5a, 0x3d,
  0x55, 0x14, 0xb4, 0xbe, 0xdc, 0xf6, 0xe6, 0x3d, 0x14, 0x21, 0x86, 0xbb,
  0x2f, 0x78, 0xca, 0xbd, 0x60, 0x70, 0x4c, 0x3e, 0x53, 0x93, 0xfa, 0x3c,
  0xaa, 0x39, 0x55, 0x3d, 0x7a, 0xcd, 0xb9, 0x3c, 0x6a, 0x5a, 0xb7, 0x3e,
  0xdc, 0x29, 0xbf, 0xbd, 0x74, 0x63, 0xa7, 0x3d, 0xf8, 0x86, 0x09, 0x3e,
  0x36, 0x37, 0xac, 0xbe, 0x8a, 0x30, 0x2d, 0x3e, 0x8d, 0x0a, 0x6a, 0xbe,
  0x26, 0xbe, 0xaf, 0x3d, 0x2f, 0x8e, 0x3b, 0xbe, 0x9a, 0x50, 0x11, 0x3e,
  0x22, 0x67, 0x48, 0xbf, 0x3d, 0xc7, 0x27, 0x3e, 0x64, 0xd9, 0x41, 0xbe,
  0x53, 0x64, 0x19, 0xbf, 0x98, 0x15, 0xf3, 0xbe, 0x7c, 0xee, 0x54, 0xbe,
  0xd1, 0x10, 0x30, 0xbe, 0x07, 0x52, 0x20, 0xbe, 0x34, 0x33, 0x00, 0x3f,
  0x3b, 0xd2, 0x75, 0x3e, 0x17, 0x2e, 0xd0, 0xbe, 0x3a, 0x65, 0x1a, 0x3e,
  0xc6, 0xa0, 0xef, 0x3d, 0xc7, 0x0d, 0x2b, 0x3d, 0x9b, 0xe3, 0xd0, 0xbd,
  0x91, 0x1b, 0xdd, 0x3c, 0x3b, 0x51, 0x1b, 0xbe, 0x5c, 0x07, 0xb0, 0x3d,
  0xe2, 0x65, 0xda, 0x3e, 0x42, 0x15, 0xf3, 0xbe, 0x6c, 0xb8, 0x6e, 0x3c,
  0x47, 0x6e, 0x35, 0xbd, 0x92, 0x8d, 0xbd, 0x3e, 0xfb, 0xb3, 0xe5, 0x3c,
  0x9d, 0x52, 0x2e, 0x3d, 0xee, 0x02, 0xd0, 0xbd, 0xf8, 0x1c, 0x68, 0xbe,
  0x12, 0xd7, 0xf4, 0x3d, 0x0c, 0x44, 0xbd, 0xbd, 0xda, 0x0d, 0xc5, 0x3d,
  0xec, 0x36, 0x6b, 0x3a, 0xdb, 0x66, 0xa2, 0x3e, 0x98, 0xf1, 0x6a, 0x3d,
  0x49, 0x3c, 0x85, 0x3e, 0x4e, 0x72, 0x7c, 0xbd, 0xa0, 0xa9, 0xb2, 0x3d,
  0xec, 0x31, 0xa7, 0xbe, 0x6d, 0xcb, 0xae, 0x3e, 0x35, 0xa7, 0x4c, 0x3e,
  0xf6, 0x42, 0x04, 0xbe, 0xd8, 0x56, 0x27, 0xbe, 0x63, 0x75, 0xa1, 0x3d,
  0x3c, 0xd8, 0x9d, 0x3e, 0xb3, 0x09, 0x56, 0xbd, 0xce, 0x6f, 0x05, 0x3d,
  0xeb, 0x59, 0xb1, 0xbe, 0xd2, 0x15, 0xcb, 0x3e, 0xf5, 0x07, 0xf1, 0xbd,
  0xd4, 0x44, 0x83, 0xbe, 0xba, 0x7f, 0x66, 0x3e, 0xaf, 0xbb, 0xdd, 0x3c,
  0x25, 0xda, 0xba, 0x3d, 0x1e, 0xa2, 0xb8, 0xbd, 0x1b, 0x96, 0x17, 0xbe,
  0x14, 0x91, 0x18, 0x3e, 0x16, 0x31, 0xeb, 0x3d, 0xfa, 0xb1, 0x5a, 0x3e,
  0x0d, 0x24, 0x43, 0x3f, 0x3f, 0x2d, 0x02, 0x3f, 0xe7, 0x07, 0xf5, 0x3d,
  0xfe, 0xbf, 0x40, 0x3e, 0x29, 0x98, 0xe5, 0xbd, 0xd3, 0x6e, 0xc3, 0x3e,
  0x60, 0x9b, 0xc6, 0xbd, 0x49, 0x87, 0x2e, 0xbb, 0x38, 0xe7, 0x7a, 0x3d,
  0xb6, 0x97, 0xb7, 0xbe, 0x59, 0x0e, 0x75, 0x3e, 0xeb, 0xbf, 0x3b, 0xbe,
  0xf3, 0x94, 0x28, 0x3c, 0x52, 0xd1, 0x50, 0xbe, 0xcb, 0x10, 0xc7, 0xbe,
  0x28, 0xa1, 0x91, 0x3e, 0x09, 0x6a, 0x13, 0xbd, 0xd5, 0xe6, 0xbf, 0x3d,
  0x21, 0x13, 0x54, 0xbe, 0x2b, 0xcc, 0xc1, 0xbe, 0x92, 0x57, 0x12, 0x3d,
  0x69, 0x46, 0x7d, 0xbe, 0x24, 0x62, 0x83, 0x3e, 0xa3, 0x3f, 0xc0, 0xbd,
  0xc9, 0x30, 0xe1, 0x3e, 0xa3, 0x0c, 0xc6, 0xbe, 0x27, 0x1f, 0x68, 0x3e,
  0xf6, 0x2f, 0xf2, 0xbe, 0x66, 0x22, 0x9c, 0x3e, 0xe9, 0x7f, 0x74, 0xbe,
  0xa1, 0xe2, 0x25, 0xbe, 0x3d, 0xa3, 0x29, 0xbe, 0x93, 0x89, 0x5a, 0xbe,
  0x94, 0x76, 0xc8, 0x3e, 0xeb, 0x3f, 0x4b, 0x3e, 0xe5, 0xdf, 0x3c, 0xbf,
  0x9d, 0x62, 0x15, 0x3f, 0x44, 0xb8, 0xcd, 0x3c, 0x07, 0x1a, 0xb8, 0xbd,
  0x44, 0xe5, 0x6a, 0x3d, 0x62, 0xde, 0x5c, 0xbe, 0xd3, 0x65, 0x5c, 0xbd,
  0xe6, 0x80, 0xd3, 0x3e, 0xde, 0x9a, 0x0e, 0xbd, 0x8e, 0x75, 0xb9, 0x3e,
  0xeb, 0xf7, 0xa0, 0x3e, 0x4a, 0xc1, 0x8e, 0xbe, 0x16, 0xc8, 0x07, 0x3f,
  0x4a, 0x2d, 0x17, 0x3e, 0xca, 0x29, 0x55, 0xba, 0xe7, 0xc1, 0x79, 0x3d,
  0x56, 0x4e, 0xbf, 0xbe, 0xbf, 0x0d, 0x39, 0x3e, 0x7f, 0x27, 0xaf, 0xbc,
  0x3f, 0x9c, 0x40, 0xbe, 0xf2, 0x4e, 0x9c, 0x3e, 0x08, 0x64, 0x0a, 0xbd,
  0x8c, 0x70, 0xc5, 0x3d, 0x73, 0x1a, 0x4b, 0xbd, 0x43, 0x1d, 0xd4, 0x3d,
  0x23, 0xb5, 0xb6, 0x3d, 0x87, 0x1f, 0x2c, 0xbe, 0x82, 0xbb, 0xc0, 0x3d,
  0x4c, 0x68, 0x84, 0xbd, 0xdf, 0x90, 0x47, 0x3e, 0x4a, 0x9b, 0x6f, 0xbd,
  0x26, 0x96, 0x90, 0x3d, 0x83, 0xad, 0x38, 0x3d, 0xd3, 0x90, 0xb4, 0x3d,
  0x13, 0x52, 0xbe, 0x3e, 0xb9, 0x36, 0x81, 0xbd, 0x89, 0x77, 0xb6, 0x3d,
  0x08, 0x07, 0x6f, 0x3e, 0x94, 0xce, 0x58, 0xbe, 0xb6, 0x7b, 0xed, 0x3e,
  0x5b, 0x22, 0x2e, 0x3d, 0x76, 0x0a, 0xa0, 0x3c, 0x75, 0x40, 0x52, 0xbe,
  0x74, 0xac, 0x25, 0x3e, 0x29, 0xdb, 0x07, 0x3e, 0x0f, 0x3d, 0x8f, 0xbe,
  0x14, 0xf8, 0xed, 0x3d, 0x0a, 0xc2, 0xb0, 0x3e, 0x12, 0xbe, 0xab, 0xbd,
  0x82, 0x7b, 0x24, 0xbe, 0xb2, 0x06, 0x6e, 0x3e, 0x3c, 0x18, 0xf4, 0xbb,
  0xb3, 0x8f, 0x7a, 0x3e, 0x95, 0x93, 0xe4, 0xbe, 0xd5, 0x48, 0x00, 0xbe,
  0xe9, 0x52, 0x80, 0xbe, 0x91, 0xff, 0x08, 0x3e, 0xa2, 0x1f, 0xbc, 0xbe,
  0xfd, 0x8e, 0x1d, 0xbd, 0xa0, 0x15, 0xc1, 0xbd, 0x42, 0x80, 0x84, 0xbc,
  0x3d, 0xc8, 0x06, 0xbf, 0x3c, 0x9e, 0x86, 0x3e, 0x6c, 0x02, 0x86, 0xbe,
  0x80, 0x96, 0xd2, 0xbe, 0x7e, 0xc2, 0xe7, 0x39, 0x30, 0x65, 0xe5, 0xbe,
  0x51, 0xc0, 0xbf, 0x3b, 0x74, 0x46, 0x36, 0x3e, 0x34, 0xcb, 0xfc, 0xbd,
  0xce, 0x13, 0x36, 0xbd, 0x99, 0x18, 0x37, 0x3e, 0x67, 0xa2, 0x42, 0xbe,
  0xee, 0xd0, 0xce, 0x3e, 0x28, 0x2a, 0x1f, 0x3c, 0x82, 0xdf, 0x42, 0xbd,
  0x1a, 0x58, 0x12, 0xbe, 0x08, 0xeb, 0xa1, 0x3e, 0x69, 0x33, 0x8c, 0xbc,
  0x8c, 0xe5, 0xa7, 0xbd, 0xa9, 0x71, 0x58, 0x3d, 0x75, 0xe4, 0xce, 0x3e,
  0x1a, 0x75, 0x83, 0x3e, 0x56, 0xc5, 0x2f, 0xbe, 0x6c, 0x43, 0x72, 0x3e,
  0xde, 0xb9, 0xb5, 0xbd, 0xb1, 0x05, 0xf1, 0xbd, 0x7e, 0x99, 0x02, 0xbe,
  0x2d, 0xf5, 0x00, 0xbe, 0xea, 0x18, 0xd2, 0xbd, 0x6a, 0x50, 0x02, 0x3f,
  0xb8, 0xad, 0x40, 0x3e, 0x78, 0xf4, 0xba, 0xbe, 0xc0, 0x93, 0xa9, 0x3e,
  0x4c, 0x4a, 0x43, 0x3e, 0x29, 0xbb, 0x5c, 0xbe, 0xe1, 0x2d, 0x90, 0x3d,
  0xa4, 0x39, 0xfe, 0xbd, 0xbe, 0xf6, 0xb5, 0xba, 0xe2, 0x20, 0x2f, 0xbe,
  0x01, 0x5f, 0x61, 0xbd, 0x34, 0x5a, 0x35, 0x3e, 0x0f, 0xda, 0x73, 0xbe,
  0xeb, 0xf4, 0x58, 0x3d, 0x2e, 0x98, 0x6a, 0x3e, 0xe6, 0x4b, 0xcc, 0xbe,
  0x8d, 0xa7, 0x06, 0x3f, 0xf3, 0xda, 0xd8, 0x3d, 0xbe, 0xec, 0x18, 0xbf,
  0x18, 0x68, 0xdb, 0x3e, 0xcf, 0x71, 0xf4, 0x3e, 0x97, 0x8a, 0x65, 0xbe,
  0x05, 0x98, 0x08, 0xbd, 0xef, 0xbd, 0x34, 0x3e, 0x1e, 0xc9, 0x5b, 0xbe,
  0xe2, 0xf7, 0x33, 0xbf, 0x5e, 0xe7, 0x85, 0x3e, 0x35, 0x58, 0xbf, 0x3b,
  0x0a, 0xf8, 0x2e, 0x3f, 0xa9, 0x9b, 0xc6, 0xbd, 0x11, 0x39, 0x17, 0x3b,
  0xee, 0xb9, 0xd0, 0x3c, 0xb2, 0x5f, 0x87, 0x3c, 0xac, 0x60, 0x36, 0xbe,
  0xb3, 0x8f, 0xc0, 0x3e, 0x57, 0xa0, 0x7f, 0xbe, 0x32, 0x31, 0x6c, 0xbb,
  0xce, 0xe2, 0x85, 0xbe, 0x62, 0x98, 0xf5, 0x3d, 0x53, 0x47, 0x10, 0xbd,
  0x9a, 0xfb, 0x85, 0x3d, 0x93, 0xe8, 0xef, 0x3c, 0x3c, 0x23, 0x75, 0x3e,
  0xb3, 0x18, 0xbe, 0x3d, 0xa0, 0x48, 0xe6, 0x3d, 0xbd, 0x78, 0xe9, 0xbc,
  0xf2, 0x01, 0x10, 0xbe, 0x21, 0xc2, 0x80, 0x3c, 0x90, 0xd8, 0x0a, 0xbe,
  0x67, 0x2b, 0x19, 0x3e, 0x48, 0x0a, 0xe9, 0xbc, 0x0b, 0x28, 0xbf, 0xbe,
  0x1d, 0xbb, 0x84, 0xbc, 0x4b, 0xb9, 0xc1, 0xbe, 0x68, 0x7f, 0xbb, 0xbc,
  0x5d, 0x59, 0x19, 0x3f, 0x29, 0xe5, 0x1b, 0xbd, 0x41, 0x80, 0xa5, 0xbd,
  0xb9, 0x81, 0x96, 0xbd, 0x8a, 0x0e, 0x03, 0xbe, 0xd3, 0x8c, 0x0f, 0xbe,
  0x8b, 0x25, 0xe1, 0xbd, 0x26, 0xc4, 0x89, 0xbe, 0x1b, 0x04, 0x00, 0x3e,
  0x84, 0x5b, 0xcb, 0xbc, 0x9b, 0xb7, 0x54, 0x3e, 0xa6, 0x99, 0x20, 0xbe,
  0x66, 0x6d, 0x3c, 0xbd, 0xea, 0x8d, 0x26, 0x3e, 0xda, 0x05, 0xb5, 0x3d,
  0x29, 0x7c, 0x02, 0x3e, 0xf9, 0x5f, 0xaf, 0x3d, 0xd4, 0x6b, 0xbd, 0xbc,
  0x54, 0x67, 0xa8, 0x3d, 0xc9, 0xab, 0xca, 0xbd, 0x0e, 0x37, 0x8a, 0xbe,
  0xe5, 0x4f, 0xe6, 0x3e, 0x49, 0x1b, 0x5b, 0xbd, 0xfd, 0x14, 0x1c, 0xbe,
  0x6b, 0xe5, 0xc4, 0xbe, 0x97, 0xf0, 0x97, 0x3d, 0x57, 0x13, 0xc0, 0xbd,
  0xb1, 0x4b, 0x25, 0x3f, 0xe4, 0x82, 0x54, 0x3d, 0x9f, 0xa0, 0xbc, 0xbc,
  0xcb, 0x67, 0x4f, 0x3e, 0x8d, 0xc1, 0xa1, 0x3e, 0x80, 0xbe, 0xe5, 0x3d,
  0x3a, 0x88, 0x41, 0xbe, 0x4b, 0xec, 0xe6, 0xbd, 0xa5, 0x2f, 0x97, 0xba,
  0xda, 0x67, 0x3c, 0xbe, 0x04, 0xa2, 0xf4, 0x3d, 0xc8, 0xa6, 0x96, 0xbe,
  0x98, 0xcf, 0x9f, 0x3e, 0x64, 0xf9, 0x2a, 0x3e, 0x23, 0x51, 0xb5, 0xbe,
  0xee, 0x59, 0x00, 0xbd, 0xa1, 0x0f, 0x6b, 0xbe, 0xa4, 0x2d, 0xd2, 0x3d,
  0x3d, 0x12, 0x35, 0xbc, 0x87, 0x8a, 0x2e, 0x3e, 0x7b, 0x1b, 0xe6, 0xbd,
  0x34, 0xbc, 0x17, 0x3e, 0x67, 0xb7, 0x29, 0x3e, 0x1a, 0xf8, 0xc5, 0xbc,
  0x2f, 0xae, 0x11, 0xbd, 0xca, 0xb2, 0x11, 0x3d, 0x53, 0xe1, 0x7e, 0xbe,
  0x60, 0xb3, 0xc4, 0x3e, 0x52, 0x8e, 0x03, 0x3e, 0xb4, 0xc4, 0x4b, 0xbd,
  0xa2, 0x9e, 0x40, 0xbe, 0x0f, 0xbb, 0xc3, 0x3e, 0xd4, 0x96, 0x14, 0x3e,
  0xce, 0xd8, 0x90, 0x3e, 0xef, 0x9a, 0xd1, 0x3e, 0x64, 0x58, 0x52, 0xbe,
  0x71, 0x12, 0x02, 0xbe, 0x7a, 0x76, 0xb4, 0xbd, 0x28, 0x12, 0x25, 0x3e,
  0xbd, 0x3e, 0x89, 0x3e, 0x9f, 0x53, 0x65, 0x3e, 0x82, 0x7e, 0x3a, 0xbe,
  0x9e, 0x8c, 0xaf, 0x3e, 0x46, 0xd5, 0xb3, 0xbe, 0xc0, 0x26, 0xb0, 0x3d,
  0x5c, 0x2d, 0xb3, 0xbe, 0xc4, 0xcd, 0x7d, 0x3e, 0xf4, 0xd5, 0xce, 0xbd,
  0x68, 0x1d, 0x1d, 0xbe, 0xab, 0xde, 0x3a, 0xbe, 0xe3, 0x73, 0x5e, 0x3d,
  0x35, 0x71, 0x9b, 0x3e, 0x95, 0x3c, 0x70, 0x3d, 0xfd, 0xb3, 0x8c, 0xbe,
  0x13, 0x9d, 0x8d, 0x3d, 0xf9, 0x45, 0xa6, 0xbe, 0x3c, 0xfd, 0x57, 0x3e,
  0xcc, 0x4f, 0xaf, 0xbe, 0x68, 0x0f, 0xc7, 0x3e, 0x34, 0x3a, 0xdc, 0xbd,
  0xcd, 0xa8, 0x2c, 0xbd, 0x6a, 0x2a, 0x12, 0xbd, 0x81, 0x3e, 0x00, 0x3e,
  0xca, 0xdb, 0x1a, 0x3e, 0xfa, 0xe4, 0x54, 0xbd, 0x65, 0x22, 0xe8, 0x3d,
  0xfb, 0xd6, 0x6b, 0x3d, 0x4f, 0x08, 0x00, 0xbe, 0x64, 0x97, 0xba, 0xbc,
  0xaf, 0xf6, 0xa7, 0x3d, 0x6d, 0x8e, 0xf4, 0xbd, 0x4c, 0x8b, 0xbf, 0x3d,
  0x88, 0x11, 0x0b, 0x3d, 0x86, 0x96, 0x90, 0x3e, 0x23, 0x29, 0xbf, 0x3b,
  0x80, 0xf4, 0xc9, 0x3c, 0x2c, 0xcb, 0x48, 0xbc, 0xb1, 0x70, 0x49, 0xbe,
  0x1b, 0xb9, 0xf7, 0xbe, 0x9c, 0xc7, 0xe4, 0x3d, 0x1e, 0xf6, 0x86, 0xbe,
  0x03, 0xbf, 0x29, 0x3f, 0x25, 0x31, 0x68, 0xbd, 0x0d, 0x38, 0x62, 0x3e,
  0x55, 0xc2, 0x92, 0x3d, 0x4e, 0xb3, 0xdf, 0x3d, 0x1c, 0x81, 0x9a, 0x3e,
  0x38, 0x5d, 0x87, 0x3c, 0xa9, 0xc4, 0xc9, 0xbd, 0xaa, 0xf6, 0x64, 0x3e,
  0x59, 0xcb, 0x3f, 0x3e, 0x9a, 0x32, 0x55, 0x3e, 0x12, 0x66, 0x03, 0xbe,
  0x44, 0x33, 0xeb, 0x3c, 0xdc, 0x6d, 0x8b, 0xbe, 0xf6, 0x15, 0x7e, 0x3e,
  0x50, 0x18, 0xdb, 0xbd, 0xe8, 0xd6, 0x89, 0xbc, 0x8d, 0xc4, 0x46, 0x3d,
  0xd3, 0xdc, 0x12, 0x3e, 0x56, 0x1c, 0x3a, 0xbd, 0x84, 0x7d, 0x60, 0xbd,
  0xf2, 0x6d, 0xb8, 0x3c, 0x90, 0xd5, 0x14, 0xbe, 0x8a, 0xbd, 0x2a, 0xbd,
  0xf8, 0x04, 0xb0, 0x3c, 0xab, 0x99, 0x0a, 0x3d, 0xc0, 0x65, 0x53, 0x3e,
  0xf2, 0xb7, 0x08, 0xbd, 0xb9, 0x9d, 0xc8, 0x3c, 0xb2, 0xe9, 0x71, 0xbd,
  0x73, 0x7c, 0x20, 0xbe, 0xbf, 0x66, 0x33, 0x3d, 0xed, 0xb7, 0xcd, 0xbe,
  0x09, 0xe6, 0x04, 0xbe, 0xa9, 0xfc, 0xf4, 0xbc, 0xbd, 0x0d, 0xae, 0x3e,
  0x91, 0x61, 0xdc, 0x3d, 0x3c, 0x89, 0x3b, 0xbe, 0x90, 0xce, 0xe6, 0xbd,
  0xcd, 0x7a, 0xb7, 0x3e, 0x21, 0x0e, 0xb7, 0x3e, 0x10, 0x55, 0xcb, 0xbd,
  0xdd, 0xc0, 0xa7, 0x3e, 0xef, 0x5f, 0x8f, 0xbe, 0xad, 0xf0, 0x60, 0x3e,
  0x63, 0x90, 0xab, 0x3d, 0x6e, 0x47, 0xb4, 0xbe, 0x3c, 0x05, 0x9b, 0x3d,
  0x47, 0x85, 0xb5, 0x3c, 0x0f, 0x84, 0xaa, 0x3e, 0x4e, 0xd7, 0x64, 0xbe,
  0x9c, 0x47, 0x5d, 0x3d, 0x3d, 0xc0, 0x2b, 0x3e, 0x88, 0x57, 0x68, 0xbe,
  0xac, 0x33, 0x96, 0x3e, 0x69, 0xf2, 0x4b, 0x3e, 0xec, 0xfe, 0x76, 0xbd,
  0x8d, 0x1d, 0x00, 0xbe, 0x1d, 0xa4, 0x0d, 0x3e, 0xf8, 0x28, 0x86, 0xbe,
  0x6a, 0x26, 0x18, 0x3e, 0xa2, 0x06, 0x8a, 0x3e, 0xd3, 0xe0, 0x66, 0xbe,
  0xaf, 0xd1, 0x5f, 0x3f, 0x04, 0xb8, 0xf6, 0x3e, 0xb2, 0xcc, 0x01, 0xbe,
  0xd0, 0xb7, 0xf4, 0xbd, 0x28, 0x8f, 0x88, 0x3d, 0x69, 0x17, 0x23, 0x3b,
  0xeb, 0xf9, 0x8b, 0xbe, 0xb6, 0xbb, 0x07, 0x3e, 0x15, 0x0c, 0x82, 0xbe,
  0xfd, 0xe7, 0x53, 0xbe, 0x6f, 0x33, 0x3d, 0x3e, 0x38, 0x29, 0x38, 0x3e,
  0xb5, 0x24, 0x36, 0x3e, 0xb2, 0xda, 0xa0, 0x3d, 0x12, 0xf9, 0x1f, 0x3d,
  0x34, 0x0a, 0xc6, 0xbe, 0x2d, 0x1f, 0x33, 0x3e, 0x92, 0x90, 0x04, 0xbe,
  0xcb, 0x94, 0xc6, 0xbe, 0xa9, 0x80, 0xa5, 0x3d, 0xa4, 0x9f, 0xd4, 0xbe,
  0x64, 0xed, 0xf8, 0x3b, 0xed, 0x2c, 0x07, 0x3e, 0xec, 0x92, 0xda, 0x3a,
  0xb7, 0xbb, 0xb0, 0x3e, 0x2d, 0x3f, 0x71, 0x3e, 0xd2, 0x1d, 0xb1, 0xbd,
  0x1c, 0x42, 0x18, 0x3f, 0x1c, 0xd6, 0xfc, 0x3e, 0x20, 0x26, 0x20, 0x3e,
  0x5d, 0x66, 0xb2, 0x3d, 0xbb, 0x71, 0xef, 0x3c, 0xe6, 0x89, 0x67, 0x3e,
  0x6d, 0x41, 0x4a, 0x3d, 0x48, 0x2a, 0x02, 0xbd, 0x65, 0x70, 0x8b, 0x3d,
  0x87, 0x00, 0xdc, 0x3d, 0xcd, 0x83, 0x47, 0x3e, 0xb1, 0x80, 0x53, 0xbe,
  0xd6, 0xca, 0xe2, 0xbb, 0xc3, 0xd3, 0x28, 0x3d, 0x48, 0xac, 0x1f, 0x3d,
  0x7a, 0x6e, 0xa1, 0xbe, 0xbb, 0x23, 0xcb, 0x3e, 0xc9, 0x2b, 0x16, 0xbe,
  0xd9, 0x46, 0x2a, 0xbe, 0xf3, 0x94, 0x43, 0x3d, 0xdf, 0xfb, 0xe7, 0x3d,
  0x75, 0xb8, 0x0b, 0x3e, 0xc3, 0x2d, 0xe2, 0x3b, 0x22, 0x24, 0xd1, 0x3d,
  0x02, 0x7f, 0x39, 0xbe, 0xec, 0x40, 0xa2, 0xbe, 0x55, 0xf0, 0x56, 0xbe,
  0xa8, 0x85, 0xcf, 0x3e, 0xca, 0xff, 0xd1, 0x3c, 0x6e, 0x0b, 0xe0, 0xbd,
  0x69, 0x25, 0xad, 0x3e, 0xe8, 0x47, 0x80, 0x3e, 0x25, 0xac, 0xa8, 0xbd,
  0x3a, 0x88, 0xe5, 0x3e, 0x99, 0x26, 0xb9, 0x3c, 0x93, 0xc0, 0x97, 0x3e,
  0xd4, 0x74, 0x69, 0x3e, 0xa8, 0x72, 0x8d, 0xbe, 0x18, 0xaa, 0x04, 0x3f,
  0xa7, 0xf6, 0xec, 0x3d, 0x8f, 0x48, 0xa3, 0xbc, 0xc7, 0x1c, 0x06, 0x3e,
  0x6c, 0xa1, 0xa1, 0x3e, 0xd2, 0x0f, 0x83, 0xbd, 0x5b, 0xcd, 0x8f, 0x3e,
  0xaf, 0x98, 0x05, 0x3e, 0xa7, 0x02, 0x98, 0xbe, 0xb3, 0xf7, 0x17, 0x3e,
  0xeb, 0xa7, 0x0b, 0xbe, 0xae, 0x3e, 0x1b, 0x3e, 0x10, 0x74, 0x16, 0xbe,
  0x3a, 0x91, 0x09, 0xbe, 0x6c, 0x73, 0x1d, 0xbe, 0x60, 0xd8, 0x6c, 0x3d,
  0xce, 0x38, 0x96, 0x3e, 0xe0, 0x0f, 0x52, 0xbd, 0x9a, 0xf5, 0x37, 0x3d,
  0x10, 0x9c, 0x92, 0x3c, 0xf2, 0xd2, 0xa1, 0x3d, 0x25, 0x60, 0x81, 0xbe,
  0x03, 0x4f, 0xaf, 0x3e, 0x95, 0x51, 0x38, 0xbe, 0x91, 0x49, 0xa5, 0xbd,
  0x4c, 0x1a, 0xcf, 0xbd, 0x1e, 0xd7, 0x0b, 0xbd, 0x65, 0xfe, 0x24, 0x3e,
  0xd5, 0x89, 0x09, 0xbf, 0xae, 0xca, 0xa7, 0x3e, 0x53, 0x8b, 0xff, 0xbe,
  0x4f, 0x52, 0x75, 0xbe, 0x1b, 0xfc, 0xc8, 0xbe, 0xcb, 0xf0, 0xb5, 0xbe,
  0x70, 0xa0, 0x01, 0x3f, 0xa6, 0x52, 0xa4, 0xbd, 0xf3, 0x7c, 0x06, 0xbe,
  0x62, 0xc8, 0xb7, 0xbd, 0x74, 0x89, 0xf9, 0x3d, 0x81, 0xf0, 0xa3, 0x3d,
  0xaa, 0x4b, 0xe0, 0x3a, 0xdd, 0x10, 0x19, 0xbe, 0xd0, 0x65, 0x80, 0xbe,
  0x43, 0x53, 0xeb, 0x3c, 0x0d, 0xe8, 0xb8, 0xbb, 0x95, 0xbd, 0x09, 0xbe,
  0x62, 0xb2, 0xf0, 0x3e, 0x99, 0xc4, 0x99, 0xbe, 0xf9, 0x8f, 0xd4, 0xbd,
  0xbf, 0x53, 0x29, 0x3e, 0x79, 0x36, 0x7c, 0xbd, 0x6d, 0x3e, 0x24, 0xbf,
  0x7e, 0x00, 0x5e, 0x3e, 0xa9, 0xeb, 0x66, 0xbe, 0xdb, 0x2f, 0x0e, 0xbe,
  0x5d, 0x11, 0x17, 0xbe, 0xdd, 0x17, 0xda, 0xbe, 0x86, 0xce, 0x06, 0x3e,
  0xf6, 0x57, 0xf6, 0xbe, 0xba, 0xa5, 0xb3, 0x3e, 0xee, 0x29, 0xcb, 0x3d,
  0xde, 0xc7, 0x38, 0x3b, 0xca, 0x3e, 0x3d, 0x3e, 0x54, 0x2f, 0x3c, 0xbe,
  0x3d, 0x6f, 0x01, 0x3e, 0xb5, 0x6b, 0x90, 0x3d, 0xfd, 0xb6, 0xa6, 0xbd,
  0x07, 0x10, 0x66, 0x3e, 0x99, 0xac, 0x79, 0xbe, 0x45, 0xf1, 0x90, 0x3e,
  0x55, 0x75, 0xdc, 0x3d, 0x51, 0x43, 0xc1, 0xbe, 0x84, 0xc3, 0xda, 0x3b,
  0x37, 0x27, 0x84, 0xbc, 0xda, 0xed, 0x8a, 0x3e, 0xa0, 0xa7, 0x6a, 0x3e,
  0x64, 0xa5, 0x48, 0xbb, 0x72, 0x1a, 0x34, 0xbd, 0xba, 0xac, 0x87, 0xbe,
  0xcd, 0x37, 0xd7, 0x3e, 0xfb, 0x35, 0xb0, 0xbd, 0xec, 0x3b, 0x84, 0x3d,
  0x57, 0x11, 0x7e, 0x3e, 0x46, 0x84, 0x9e, 0x3d, 0xf1, 0x40, 0xe4, 0x3d,
  0x58, 0x97, 0xb4, 0xbe, 0x4d, 0x73, 0xa5, 0x3d, 0x35, 0x1e, 0x74, 0x3e,
  0x39, 0xc3, 0xfe, 0xbd, 0xcd, 0x9c, 0x24, 0x3e, 0xeb, 0x69, 0x40, 0x3d,
  0x3c, 0xc5, 0xa7, 0x3e, 0x95, 0x2c, 0x62, 0xbc, 0x62, 0xe7, 0x24, 0x3a,
  0x6f, 0x4f, 0x1e, 0xbe, 0x43, 0xb0, 0x61, 0xbe, 0xf1, 0x91, 0x5e, 0x3d,
  0x9d, 0x9a, 0xa1, 0x3b, 0xbb, 0x50, 0x10, 0x3e, 0x4d, 0x44, 0x82, 0xbd,
  0xee, 0x45, 0x4c, 0xbe, 0x6c, 0x21, 0xbc, 0xbd, 0x52, 0xfe, 0xff, 0xff,
  0x04, 0x00, 0x00, 0x00, 0x90, 0x01, 0x00, 0x00, 0xf9, 0x5a, 0xda, 0xbe,
  0x98, 0x67, 0xbc, 0xbe, 0x08, 0x30, 0xb4, 0xbe, 0x8a, 0x98, 0xe3, 0x3e,
  0x10, 0xf3, 0xe3, 0xbc, 0xd7, 0xeb, 0xd1, 0x3d, 0x9d, 0x89, 0x17, 0x3f,
  0x0f, 0x9a, 0xe2, 0xbe, 0xfd, 0xfc, 0xef, 0xbd, 0x30, 0xb3, 0x8e, 0x3e,
  0x3a, 0x93, 0x05, 0x3f, 0x09, 0x8f, 0xb0, 0xbe, 0x00, 0x45, 0x0b, 0x3f,
  0xb2, 0x1f, 0x09, 0xbf, 0xd2, 0x52, 0x0a, 0x3f, 0x81, 0x11, 0xf1, 0x3e,
  0x1b, 0xf8, 0xe9, 0xbd, 0xd3, 0xe0, 0x81, 0x3e, 0x5d, 0xbb, 0x9d, 0xbe,
  0x9c, 0xca, 0xd1, 0x3e, 0x38, 0x6a, 0xf4, 0xbe, 0x38, 0x27, 0x18, 0xbf,
  0x89, 0xe5, 0xbe, 0xbe, 0xe3, 0x46, 0xfa, 0xbe, 0x7c, 0x92, 0x36, 0x3f,
  0xa4, 0xd2, 0x93, 0x3e, 0xff, 0xdc, 0xe6, 0xbe, 0x75, 0xfc, 0x23, 0x3f,
  0x12, 0x43, 0x1f, 0x3f, 0x91, 0x26, 0xda, 0x3e, 0xee, 0xef, 0x01, 0xbf,
  0xd9, 0xbc, 0xa0, 0xbe, 0x6b, 0xa1, 0x99, 0xbd, 0xc8, 0x0e, 0xfe, 0xbe,
  0x33, 0x6d, 0xd9, 0xbe, 0xa6, 0x38, 0xe9, 0x3e, 0x1a, 0xd7, 0x30, 0xbf,
  0x81, 0x0b, 0xbd, 0x3e, 0xa1, 0xfe, 0x05, 0x3f, 0x62, 0x62, 0x07, 0x3f,
  0x64, 0xd6, 0xaa, 0xbe, 0x4d, 0x8b, 0xf8, 0xbe, 0x56, 0xbb, 0xe0, 0xbe,
  0x7f, 0xdb, 0x0b, 0x3f, 0x9b, 0xaa, 0x24, 0xbe, 0xf6, 0x6b, 0x6c, 0x3e,
  0x9b, 0x47, 0x53, 0xbe, 0x87, 0xb9, 0xce, 0xbe, 0x21, 0xe4, 0xef, 0xbe,
  0x86, 0xd4, 0xfe, 0x3e, 0x7f, 0xe3, 0x51, 0xbe, 0xc0, 0xe2, 0x03, 0x3f,
  0xfb, 0x8c, 0xa0, 0x3e, 0x9e, 0x18, 0x52, 0xbe, 0xa6, 0xc9, 0x0a, 0x3f,
  0xdf, 0x36, 0xf0, 0xbe, 0x2f, 0x04, 0xcd, 0xbe, 0x00, 0x72, 0x31, 0x3f,
  0x8c, 0xd7, 0x94, 0xbe, 0xfb, 0xa9, 0xb8, 0x3e, 0xbc, 0x4a, 0xb6, 0x3e,
  0xf4, 0xe1, 0xed, 0x3e, 0x0d, 0xea, 0xa4, 0x3a, 0xea, 0x05, 0x2a, 0x3f,
  0x5b, 0x0a, 0x02, 0x3f, 0xa5, 0xeb, 0x09, 0x3f, 0x3d, 0x40, 0xe0, 0x3e,
  0xfa, 0xa7, 0x09, 0x3f, 0xa4, 0xc6, 0x18, 0x3f, 0x6f, 0x4c, 0xa7, 0xbe,
  0xc4, 0x0f, 0xc7, 0x3e, 0x7c, 0x88, 0xa4, 0xbe, 0x82, 0xa0, 0x0d, 0x3f,
  0x50, 0x00, 0x10, 0x3f, 0xb4, 0x04, 0x0a, 0x3f, 0xdb, 0x93, 0x0c, 0x3f,
  0x40, 0x26, 0x57, 0x3f, 0x4e, 0x31, 0x15, 0x3f, 0x03, 0x8d, 0x10, 0x3f,
  0x28, 0xfd, 0xfc, 0xbd, 0xce, 0x27, 0x33, 0x3f, 0xc0, 0x56, 0x18, 0xbf,
  0x2e, 0x16, 0xfc, 0xbe, 0x95, 0xde, 0x8f, 0xbe, 0x9a, 0x1c, 0x0e, 0xbf,
  0x8a, 0x5f, 0x33, 0x3f, 0x3d, 0x02, 0xf9, 0xbe, 0x02, 0x41, 0x44, 0x3f,
  0x04, 0x53, 0xca, 0xbe, 0x61, 0xd7, 0x05, 0xbe, 0x1a, 0xab, 0x37, 0x3f,
  0x1b, 0xfd, 0x3b, 0xbe, 0x57, 0xc2, 0xaa, 0x3e, 0x1d, 0x16, 0x1a, 0x3f,
  0x5d, 0x3e, 0xc3, 0xbe, 0xfc, 0xb1, 0xc3, 0xbe, 0x7f, 0xc3, 0xed, 0xbd,
  0xd3, 0xe2, 0x06, 0x3f, 0x4d, 0xc6, 0xb8, 0xbe, 0x1a, 0xb8, 0x85, 0xbd,
  0xee, 0xff, 0xff, 0xff, 0x04, 0x00, 0x00, 0x00, 0x04, 0x00, 0x00, 0x00,
  0x6e, 0x72, 0xbe, 0xbe, 0x00, 0x00, 0x06, 0x00, 0x08, 0x00, 0x04, 0x00,
  0x06, 0x00, 0x00, 0x00, 0x04, 0x00, 0x00, 0x00, 0x90, 0x01, 0x00, 0x00,
  0x4d, 0x8e, 0x25, 0x3f, 0x5f, 0xba, 0x47, 0x3f, 0x9a, 0x0d, 0x05, 0x3f,
  0xd4, 0x13, 0xae, 0xbe, 0x33, 0x58, 0x05, 0x3f, 0x6d, 0x41, 0x0c, 0x3f,
  0x9e, 0xbf, 0xc9, 0xbe, 0x2c, 0x7f, 0xa0, 0x3e, 0x67, 0xcf, 0x8a, 0x3e,
  0x7d, 0xa5, 0xcd, 0xbe, 0x91, 0x0e, 0x56, 0xbe, 0xe6, 0x2d, 0x43, 0x3f,
  0xbd, 0x11, 0x13, 0xbf, 0x41, 0x01, 0x83, 0x3e, 0x0a, 0xa6, 0x00, 0xbf,
  0xda, 0x64, 0x08, 0xbf, 0x41, 0xd0, 0x65, 0x3f, 0xfc, 0x4a, 0xdf, 0xbe,
  0xd4, 0xbe, 0xf5, 0x3e, 0xc7, 0xbd, 0x7a, 0xbe, 0x78, 0x40, 0x6e, 0x3e,
  0x4c, 0x2a, 0x77, 0x3f, 0xaa, 0x4e, 0x32, 0x3f, 0x00, 0x49, 0x99, 0x3e,
  0x48, 0x38, 0x16, 0xbf, 0xc1, 0x42, 0x16, 0xbf, 0x89, 0x4b, 0x80, 0x3f,
  0x8a, 0x1f, 0xcc, 0xbe, 0xe8, 0x22, 0x55, 0xbe, 0x52, 0x56, 0x8f, 0xbe,
  0xd3, 0xc8, 0xa4, 0x3e, 0x90, 0x4e, 0x4d, 0x3e, 0x88, 0xa0, 0x7e, 0x3e,
  0x92, 0xde, 0x9d, 0x3f, 0x1e, 0x31, 0xb3, 0x3e, 0x55, 0x55, 0xaf, 0xbe,
  0xd9, 0x48, 0x95, 0x3f, 0x7e, 0xb7, 0x9e, 0xbe, 0x27, 0xb6, 0x09, 0xbf,
  0xcb, 0xa7, 0x86, 0xbe, 0x42, 0x8c, 0xc1, 0x3e, 0x65, 0x2d, 0xc7, 0x3e,
  0xce, 0x00, 0x50, 0x3f, 0x1b, 0x23, 0xe1, 0xbe, 0x76, 0x76, 0xb1, 0x3e,
  0x68, 0x91, 0x2c, 0xbf, 0x94, 0x51, 0x20, 0x3f, 0x0e, 0x55, 0x32, 0x3f,
  0xde, 0x64, 0xc6, 0x3e, 0x10, 0xf3, 0xc1, 0xbe, 0xd9, 0x95, 0xed, 0x3e,
  0xf8, 0xf8, 0xed, 0xbe, 0xfa, 0x33, 0xc6, 0xbe, 0x91, 0x87, 0x13, 0x3f,
  0xab, 0xc2, 0x4a, 0xbe, 0x8c, 0x73, 0x0e, 0x3f, 0xa3, 0x7a, 0x49, 0x3f,
  0xd7, 0x55, 0xb3, 0xbe, 0xc3, 0xdf, 0x8b, 0x3f, 0x8a, 0x30, 0x3b, 0xbf,
  0x4c, 0xf0, 0xff, 0xbe, 0xe2, 0xed, 0x58, 0xbe, 0xf9, 0x18, 0xa0, 0xbe,
  0x2a, 0xee, 0x24, 0xbf, 0xa3, 0xdc, 0x99, 0xbe, 0x15, 0x13, 0xae, 0xbe,
  0x0c, 0xb8, 0xf7, 0xbe, 0x8c, 0x62, 0xbf, 0xbe, 0xa7, 0x14, 0xf0, 0xbe,
  0xae, 0x4c, 0x0f, 0x3f, 0x82, 0x03, 0x20, 0xbf, 0xc5, 0x50, 0xfe, 0x3e,
  0x62, 0xad, 0x94, 0xbe, 0x49, 0xd4, 0xe0, 0xbe, 0x84, 0x74, 0x0c, 0xbf,
  0x93, 0xfc, 0xfa, 0xbe, 0x50, 0x19, 0xdc, 0xbe, 0x68, 0xf1, 0xa1, 0xbe,
  0x06, 0x41, 0xaa, 0xbe, 0x11, 0x99, 0xaa, 0x3e, 0xf0, 0x7f, 0xe8, 0xbe,
  0xc0, 0x8a, 0x15, 0x3f, 0x99, 0x75, 0x92, 0x3e, 0x3b, 0xae, 0x08, 0x3f,
  0x0a, 0xea, 0x81, 0x3f, 0x2b, 0x62, 0xd4, 0xbe, 0x12, 0xf3, 0xe9, 0x3e,
  0xe3, 0xb2, 0x14, 0xbf, 0x08, 0x58, 0x3c, 0x3f, 0x77, 0x9d, 0x7b, 0x3e,
  0xed, 0x26, 0x03, 0xbf, 0xda, 0xda, 0xcd, 0x3e, 0x6f, 0xc5, 0x06, 0xbf,
  0x6d, 0x8a, 0x9d, 0xbe, 0xf0, 0x84, 0x9a, 0x3e, 0xe8, 0x5f, 0x65, 0x3e,
  0x47, 0xb2, 0x4b, 0x3e, 0xb4, 0x33, 0xd1, 0xbe, 0x31, 0xc3, 0x9d, 0x3e,
  0xb4, 0x50, 0x8e, 0x3d, 0xdc, 0xfb, 0xff, 0xff, 0xe0, 0xfb, 0xff, 0xff,
  0x0f, 0x00, 0x00, 0x00, 0x4d, 0x4c, 0x49, 0x52, 0x20, 0x43, 0x6f, 0x6e,
  0x76, 0x65, 0x72, 0x74, 0x65, 0x64, 0x2e, 0x00, 0x01, 0x00, 0x00, 0x00,
  0x14, 0x00, 0x00, 0x00, 0x00, 0x00, 0x0e, 0x00, 0x18, 0x00, 0x14, 0x00,
  0x10, 0x00, 0x0c, 0x00, 0x08, 0x00, 0x04, 0x00, 0x0e, 0x00, 0x00, 0x00,
  0x14, 0x00, 0x00, 0x00, 0x1c, 0x00, 0x00, 0x00, 0xd0, 0x00, 0x00, 0x00,
  0xd4, 0x00, 0x00, 0x00, 0xd8, 0x00, 0x00, 0x00, 0x04, 0x00, 0x00, 0x00,
  0x6d, 0x61, 0x69, 0x6e, 0x00, 0x00, 0x00, 0x00, 0x03, 0x00, 0x00, 0x00,
  0x78, 0x00, 0x00, 0x00, 0x34, 0x00, 0x00, 0x00, 0x10, 0x00, 0x00, 0x00,
  0x00, 0x00, 0x0a, 0x00, 0x10, 0x00, 0x0c, 0x00, 0x08, 0x00, 0x04, 0x00,
  0x0a, 0x00, 0x00, 0x00, 0x0c, 0x00, 0x00, 0x00, 0x10, 0x00, 0x00, 0x00,
  0x01, 0x00, 0x00, 0x00, 0x01, 0x00, 0x00, 0x00, 0x07, 0x00, 0x00, 0x00,
  0x01, 0x00, 0x00, 0x00, 0x06, 0x00, 0x00, 0x00, 0xce, 0xff, 0xff, 0xff,
  0x10, 0x00, 0x00, 0x00, 0x00, 0x00, 0x00, 0x08, 0x0c, 0x00, 0x00, 0x00,
  0x10, 0x00, 0x00, 0x00, 0x84, 0xfc, 0xff, 0xff, 0x01, 0x00, 0x00, 0x00,
  0x06, 0x00, 0x00, 0x00, 0x03, 0x00, 0x00, 0x00, 0x05, 0x00, 0x00, 0x00,
  0x01, 0x00, 0x00, 0x00, 0x02, 0x00, 0x00, 0x00, 0x00, 0x00, 0x0e, 0x00,
  0x16, 0x00, 0x00, 0x00, 0x10, 0x00, 0x0c, 0x00, 0x0b, 0x00, 0x04, 0x00,
  0x0e, 0x00, 0x00, 0x00, 0x18, 0x00, 0x00, 0x00, 0x00, 0x00, 0x00, 0x08,
  0x18, 0x00, 0x00, 0x00, 0x1c, 0x00, 0x00, 0x00, 0x00, 0x00, 0x06, 0x00,
  0x08, 0x00, 0x07, 0x00, 0x06, 0x00, 0x00, 0x00, 0x00, 0x00, 0x00, 0x01,
  0x01, 0x00, 0x00, 0x00, 0x05, 0x00, 0x00, 0x00, 0x03, 0x00, 0x00, 0x00,
  0x00, 0x00, 0x00, 0x00, 0x04, 0x00, 0x00, 0x00, 0x03, 0x00, 0x00, 0x00,
  0x01, 0x00, 0x00, 0x00, 0x07, 0x00, 0x00, 0x00, 0x01, 0x00, 0x00, 0x00,
  0x00, 0x00, 0x00, 0x00, 0x08, 0x00, 0x00, 0x00, 0xd8, 0x02, 0x00, 0x00,
  0x80, 0x02, 0x00, 0x00, 0x2c, 0x02, 0x00, 0x00, 0xd0, 0x01, 0x00, 0x00,
  0x80, 0x01, 0x00, 0x00, 0xe0, 0x00, 0x00, 0x00, 0x60, 0x00, 0x00, 0x00,
  0x04, 0x00, 0x00, 0x00, 0x5e, 0xfd, 0xff, 0xff, 0x00, 0x00, 0x00, 0x01,
  0x14, 0x00, 0x00, 0x00, 0x1c, 0x00, 0x00, 0x00, 0x1c, 0x00, 0x00, 0x00,
  0x08, 0x00, 0x00, 0x00, 0x34, 0x00, 0x00, 0x00, 0x02, 0x00, 0x00, 0x00,
  0xff, 0xff, 0xff, 0xff, 0x01, 0x00, 0x00, 0x00, 0x48, 0xfd, 0xff, 0xff,
  0x1b, 0x00, 0x00, 0x00, 0x53, 0x74, 0x61, 0x74, 0x65, 0x66, 0x75, 0x6c,
  0x50, 0x61, 0x72, 0x74, 0x69, 0x74, 0x69, 0x6f, 0x6e, 0x65, 0x64, 0x43,
  0x61, 0x6c, 0x6c, 0x5f, 0x31, 0x3a, 0x30, 0x00, 0x02, 0x00, 0x00, 0x00,
  0x01, 0x00, 0x00, 0x00, 0x01, 0x00, 0x00, 0x00, 0xb6, 0xfd, 0xff, 0xff,
  0x00, 0x00, 0x00, 0x01, 0x14, 0x00, 0x00, 0x00, 0x1c, 0x00, 0x00, 0x00,
  0x1c, 0x00, 0x00, 0x00, 0x07, 0x00, 0x00, 0x00, 0x58, 0x00, 0x00, 0x00,
  0x02, 0x00, 0x00, 0x00, 0xff, 0xff, 0xff, 0xff, 0x01, 0x00, 0x00, 0x00,
  0xa0, 0xfd, 0xff, 0xff, 0x3c, 0x00, 0x00, 0x00, 0x73, 0x65, 0x71, 0x75,
  0x65, 0x6e, 0x74, 0x69, 0x61, 0x6c, 0x5f, 0x31, 0x5f, 0x31, 0x2f, 0x64,
  0x65, 0x6e, 0x73, 0x65, 0x5f, 0x35, 0x5f, 0x31, 0x2f, 0x4d, 0x61, 0x74,
  0x4d, 0x75, 0x6c, 0x3b, 0x73, 0x65, 0x71, 0x75, 0x65, 0x6e, 0x74, 0x69,
  0x61, 0x6c, 0x5f, 0x31, 0x5f, 0x31, 0x2f, 0x64, 0x65, 0x6e, 0x73, 0x65,
  0x5f, 0x35, 0x5f, 0x31, 0x2f, 0x41, 0x64, 0x64, 0x00, 0x00, 0x00, 0x00,
  0x02, 0x00, 0x00, 0x00, 0x01, 0x00, 0x00, 0x00, 0x01, 0x00, 0x00, 0x00,
  0x32, 0xfe, 0xff, 0xff, 0x00, 0x00, 0x00, 0x01, 0x14, 0x00, 0x00, 0x00,
  0x1c, 0x00, 0x00, 0x00, 0x1c, 0x00, 0x00, 0x00, 0x06, 0x00, 0x00, 0x00,
  0x78, 0x00, 0x00, 0x00, 0x02, 0x00, 0x00, 0x00, 0xff, 0xff, 0xff, 0xff,
  0x64, 0x00, 0x00, 0x00, 0x1c, 0xfe, 0xff, 0xff, 0x5e, 0x00, 0x00, 0x00,
  0x73, 0x65, 0x71, 0x75, 0x65, 0x6e, 0x74, 0x69, 0x61, 0x6c, 0x5f, 0x31,
  0x5f, 0x31, 0x2f, 0x64, 0x65, 0x6e, 0x73, 0x65, 0x5f, 0x34, 0x5f, 0x31,
  0x2f, 0x4d, 0x61, 0x74, 0x4d, 0x75, 0x6c, 0x3b, 0x73, 0x65, 0x71, 0x75,
  0x65, 0x6e, 0x74, 0x69, 0x61, 0x6c, 0x5f, 0x31, 0x5f, 0x31, 0x2f, 0x64,
  0x65, 0x6e, 0x73, 0x65, 0x5f, 0x34, 0x5f, 0x31, 0x2f, 0x52, 0x65, 0x6c,
  0x75, 0x3b, 0x73, 0x65, 0x71, 0x75, 0x65, 0x6e, 0x74, 0x69, 0x61, 0x6c,
  0x5f, 0x31, 0x5f, 0x31, 0x2f, 0x64, 0x65, 0x6e, 0x73, 0x65, 0x5f, 0x34,
  0x5f, 0x31, 0x2f, 0x42, 0x69, 0x61, 0x73, 0x41, 0x64, 0x64, 0x00, 0x00,
  0x02, 0x00, 0x00, 0x00, 0x01, 0x00, 0x00, 0x00, 0x64, 0x00, 0x00, 0x00,
  0x22, 0xff, 0xff, 0xff, 0x00, 0x00, 0x00, 0x01, 0x10, 0x00, 0x00, 0x00,
  0x10, 0x00, 0x00, 0x00, 0x05, 0x00, 0x00, 0x00, 0x2c, 0x00, 0x00, 0x00,
  0xa8, 0xfe, 0xff, 0xff, 0x1f, 0x00, 0x00, 0x00, 0x73, 0x65, 0x71, 0x75,
  0x65, 0x6e, 0x74, 0x69, 0x61, 0x6c, 0x5f, 0x31, 0x5f, 0x31, 0x2f, 0x64,
  0x65, 0x6e, 0x73, 0x65, 0x5f, 0x34, 0x5f, 0x31, 0x2f, 0x4d, 0x61, 0x74,
  0x4d, 0x75, 0x6c, 0x00, 0x02, 0x00, 0x00, 0x00, 0x64, 0x00, 0x00, 0x00,
  0x09, 0x00, 0x00, 0x00, 0x6e, 0xff, 0xff, 0xff, 0x00, 0x00, 0x00, 0x01,
  0x10, 0x00, 0x00, 0x00, 0x10, 0x00, 0x00, 0x00, 0x04, 0x00, 0x00, 0x00,
  0x3c, 0x00, 0x00, 0x00, 0xf4, 0xfe, 0xff, 0xff, 0x2f, 0x00, 0x00, 0x00,
  0x73, 0x65, 0x71, 0x75, 0x65, 0x6e, 0x74, 0x69, 0x61, 0x6c, 0x5f, 0x31,
  0x5f, 0x31, 0x2f, 0x64, 0x65, 0x6e, 0x73, 0x65, 0x5f, 0x34, 0x5f, 0x31,
  0x2f, 0x42, 0x69, 0x61, 0x73, 0x41, 0x64, 0x64, 0x2f, 0x52, 0x65, 0x61,
  0x64, 0x56, 0x61, 0x72, 0x69, 0x61, 0x62, 0x6c, 0x65, 0x4f, 0x70, 0x00,
  0x01, 0x00, 0x00, 0x00, 0x64, 0x00, 0x00, 0x00, 0xc6, 0xff, 0xff, 0xff,
  0x00, 0x00, 0x00, 0x01, 0x10, 0x00, 0x00, 0x00, 0x10, 0x00, 0x00, 0x00,
  0x03, 0x00, 0x00, 0x00, 0x1c, 0x00, 0x00, 0x00, 0x4c, 0xff, 0xff, 0xff,
  0x0f, 0x00, 0x00, 0x00, 0x61, 0x72, 0x69, 0x74, 0x68, 0x2e, 0x63, 0x6f,
  0x6e, 0x73, 0x74, 0x61, 0x6e, 0x74, 0x31, 0x00, 0x01, 0x00, 0x00, 0x00,
  0x01, 0x00, 0x00, 0x00, 0x00, 0x00, 0x16, 0x00, 0x18, 0x00, 0x14, 0x00,
  0x00, 0x00, 0x10, 0x00, 0x0c, 0x00, 0x08, 0x00, 0x00, 0x00, 0x00, 0x00,
  0x00, 0x00, 0x07, 0x00, 0x16, 0x00, 0x00, 0x00, 0x00, 0x00, 0x00, 0x01,
  0x10, 0x00, 0x00, 0x00, 0x10, 0x00, 0x00, 0x00, 0x02, 0x00, 0x00, 0x00,
  0x1c, 0x00, 0x00, 0x00, 0x9c, 0xff, 0xff, 0xff, 0x0e, 0x00, 0x00, 0x00,
  0x61, 0x72, 0x69, 0x74, 0x68, 0x2e, 0x63, 0x6f, 0x6e, 0x73, 0x74, 0x61,
  0x6e, 0x74, 0x00, 0x00, 0x02, 0x00, 0x00, 0x00, 0x01, 0x00, 0x00, 0x00,
  0x64, 0x00, 0x00, 0x00, 0x00, 0x00, 0x16, 0x00, 0x1c, 0x00, 0x18, 0x00,
  0x00, 0x00, 0x14, 0x00, 0x10, 0x00, 0x0c, 0x00, 0x00, 0x00, 0x00, 0x00,
  0x08, 0x00, 0x07, 0x00, 0x16, 0x00, 0x00, 0x00, 0x00, 0x00, 0x00, 0x01,
  0x14, 0x00, 0x00, 0x00, 0x20, 0x00, 0x00, 0x00, 0x20, 0x00, 0x00, 0x00,
  0x01, 0x00, 0x00, 0x00, 0x3c, 0x00, 0x00, 0x00, 0x02, 0x00, 0x00, 0x00,
  0xff, 0xff, 0xff, 0xff, 0x09, 0x00, 0x00, 0x00, 0x04, 0x00, 0x04, 0x00,
  0x04, 0x00, 0x00, 0x00, 0x1f, 0x00, 0x00, 0x00, 0x73, 0x65, 0x72, 0x76,
  0x69, 0x6e, 0x67, 0x5f, 0x64, 0x65, 0x66, 0x61, 0x75, 0x6c, 0x74, 0x5f,
  0x69, 0x6e, 0x70, 0x75, 0x74, 0x5f, 0x6c, 0x61, 0x79, 0x65, 0x72, 0x5f,
  0x31, 0x3a, 0x30, 0x00, 0x02, 0x00, 0x00, 0x00, 0x01, 0x00, 0x00, 0x00,
  0x09, 0x00, 0x00, 0x00, 0x02, 0x00, 0x00, 0x00, 0x20, 0x00, 0x00, 0x00,
  0x04, 0x00, 0x00, 0x00, 0xf4, 0xff, 0xff, 0xff, 0x0e, 0x00, 0x00, 0x00,
  0x00, 0x00, 0x00, 0x0e, 0x0c, 0x00, 0x0c, 0x00, 0x0b, 0x00, 0x00, 0x00,
  0x00, 0x00, 0x04, 0x00, 0x0c, 0x00, 0x00, 0x00, 0x09, 0x00, 0x00, 0x00,
  0x00, 0x00, 0x00, 0x09
};
unsigned int mlp_tf_tflite_len = 6088;
